unsigned char nn_model_tflite[] = {
  0x1c, 0x00, 0x00, 0x00, 0x54, 0x46, 0x4c, 0x33, 0x00, 0x00, 0x12, 0x00,
  0x1c, 0x00, 0x04, 0x00, 0x08, 0x00, 0x0c, 0x00, 0x10, 0x00, 0x14, 0x00,
  0x00, 0x00, 0x18, 0x00, 0x12, 0x00, 0x00, 0x00, 0x03, 0x00, 0x00, 0x00,
  0x3c, 0x16, 0x00, 0x00, 0xcc, 0x11, 0x00, 0x00, 0xb4, 0x11, 0x00, 0x00,
  0x34, 0x00, 0x00, 0x00, 0x04, 0x00, 0x00, 0x00, 0x01, 0x00, 0x00, 0x00,
  0x04, 0x00, 0x00, 0x00, 0x68, 0xea, 0xff, 0xff, 0x08, 0x00, 0x00, 0x00,
  0x0b, 0x00, 0x00, 0x00, 0x13, 0x00, 0x00, 0x00, 0x6d, 0x69, 0x6e, 0x5f,
  0x72, 0x75, 0x6e, 0x74, 0x69, 0x6d, 0x65, 0x5f, 0x76, 0x65, 0x72, 0x73,
  0x69, 0x6f, 0x6e, 0x00, 0x0c, 0x00, 0x00, 0x00, 0x74, 0x11, 0x00, 0x00,
  0x9c, 0x10, 0x00, 0x00, 0x80, 0x10, 0x00, 0x00, 0xa8, 0x0f, 0x00, 0x00,
  0xd4, 0x05, 0x00, 0x00, 0xfc, 0x04, 0x00, 0x00, 0xf4, 0x04, 0x00, 0x00,
  0xec, 0x04, 0x00, 0x00, 0x2c, 0x00, 0x00, 0x00, 0x24, 0x00, 0x00, 0x00,
  0x1c, 0x00, 0x00, 0x00, 0x04, 0x00, 0x00, 0x00, 0x96, 0xef, 0xff, 0xff,
  0x04, 0x00, 0x00, 0x00, 0x05, 0x00, 0x00, 0x00, 0x31, 0x2e, 0x35, 0x2e,
  0x30, 0x00, 0x00, 0x00, 0x70, 0xea, 0xff, 0xff, 0x74, 0xea, 0xff, 0xff,
  0xb2, 0xef, 0xff, 0xff, 0x04, 0x00, 0x00, 0x00, 0xb0, 0x04, 0x00, 0x00,
  0xc0, 0xf0, 0x9e, 0xbe, 0xcc, 0xa1, 0xf1, 0xbe, 0x9d, 0xb3, 0x85, 0x3e,
  0x4f, 0xb7, 0x0b, 0xbf, 0xda, 0x1c, 0x97, 0x3e, 0x29, 0xb4, 0x09, 0xbe,
  0xc8, 0x7b, 0x37, 0xbe, 0x61, 0x47, 0x01, 0xbe, 0xb0, 0x98, 0x4c, 0xbc,
  0x61, 0x2d, 0x34, 0x3e, 0x35, 0xbe, 0x33, 0x3c, 0x11, 0x94, 0xbc, 0x3d,
  0x00, 0x62, 0x1d, 0xbb, 0xc0, 0x07, 0x63, 0x3d, 0x28, 0x11, 0x95, 0x3d,
  0xc4, 0x59, 0x10, 0xbe, 0x96, 0x6a, 0xde, 0xbd, 0x2c, 0x2c, 0x6e, 0xbe,
  0xaf, 0x5b, 0x4b, 0xbf, 0x78, 0x2c, 0xde, 0xbe, 0x74, 0x8d, 0x8a, 0x3e,
  0x49, 0xf6, 0x9a, 0xbd, 0x90, 0xe5, 0xb5, 0xbd, 0x87, 0x94, 0xd8, 0xbc,
  0x5e, 0x61, 0x9b, 0xbd, 0xbe, 0x40, 0x0d, 0x3f, 0x18, 0x04, 0xad, 0x3e,
  0x41, 0x71, 0xa7, 0x3d, 0xd8, 0x06, 0x36, 0x3e, 0x6c, 0x36, 0xff, 0xbd,
  0xd4, 0x68, 0x59, 0x3f, 0x86, 0xd6, 0x11, 0xbd, 0x07, 0x2e, 0x85, 0x3f,
  0x55, 0x82, 0x95, 0xbd, 0x38, 0x14, 0x42, 0xbe, 0xbb, 0xe9, 0xdf, 0x3c,
  0xd3, 0x12, 0x78, 0xbe, 0x1b, 0x3e, 0x45, 0x3e, 0x82, 0x78, 0xba, 0x3d,
  0x71, 0x5b, 0x1d, 0xbe, 0x2a, 0x7b, 0x8a, 0xbe, 0x54, 0x90, 0x3e, 0xbe,
  0xec, 0xfa, 0xba, 0xbe, 0xe3, 0x9b, 0xc6, 0xbe, 0x5c, 0x0b, 0x2d, 0x3f,
  0xb8, 0x06, 0x6d, 0x3f, 0x22, 0xbc, 0xd7, 0x3d, 0xe4, 0x32, 0x79, 0xbe,
  0x2d, 0xd5, 0xd8, 0x3e, 0x6f, 0xa1, 0x43, 0x3e, 0xf9, 0x2c, 0x24, 0x3e,
  0x36, 0xed, 0xcf, 0xbd, 0x97, 0xc2, 0xdf, 0xbe, 0xcf, 0xc2, 0xd6, 0x3e,
  0xc6, 0x15, 0xeb, 0xbd, 0xdc, 0xba, 0x6b, 0x3f, 0x22, 0xb1, 0x12, 0xbf,
  0x40, 0xb5, 0xe8, 0xbe, 0x32, 0x61, 0x9f, 0x3e, 0xa3, 0x9a, 0x73, 0xbe,
  0x11, 0x36, 0x0c, 0xbe, 0xc8, 0xf1, 0x92, 0x3e, 0x0d, 0xc9, 0x97, 0xbe,
  0xcb, 0x61, 0x4f, 0xbf, 0xce, 0x70, 0x24, 0x3c, 0xb3, 0xcc, 0x0a, 0x3e,
  0x4a, 0xc6, 0x06, 0x3f, 0x3b, 0x7f, 0xda, 0xbe, 0x44, 0xd8, 0x56, 0x3f,
  0x02, 0x4b, 0x0c, 0xbf, 0xd3, 0x2f, 0xaa, 0xbd, 0x65, 0x27, 0x55, 0x3c,
  0x87, 0x78, 0x7c, 0x3e, 0x1f, 0x8c, 0x8f, 0x3f, 0x5e, 0x58, 0x84, 0xbf,
  0xce, 0x29, 0x40, 0x3a, 0xd6, 0x8b, 0xdd, 0x3d, 0x82, 0x19, 0xd0, 0xbd,
  0x82, 0xf4, 0xa1, 0xbd, 0x64, 0x19, 0x42, 0x3e, 0x81, 0x90, 0xc3, 0xbe,
  0x99, 0xfa, 0x92, 0x3c, 0xce, 0x2c, 0x4c, 0x3e, 0x2b, 0xd5, 0xe1, 0xbc,
  0x71, 0x1e, 0x35, 0xbe, 0xac, 0xc5, 0x41, 0x3f, 0xe4, 0x7a, 0x90, 0xbe,
  0x07, 0x3d, 0xa6, 0x3c, 0xc7, 0xce, 0x29, 0xbe, 0xba, 0xfd, 0x5e, 0xbe,
  0x55, 0x82, 0x17, 0xbf, 0x97, 0xaa, 0xd6, 0xbd, 0xa2, 0x96, 0x67, 0x3f,
  0xfc, 0x5a, 0x7d, 0x3c, 0xa8, 0x47, 0x74, 0xbe, 0x79, 0xb9, 0x9f, 0xbe,
  0x38, 0xcd, 0x78, 0xbe, 0xaa, 0x23, 0xf0, 0xbd, 0x00, 0xf1, 0xf8, 0xba,
  0xcc, 0xc9, 0x1a, 0xbe, 0xc0, 0xd5, 0x43, 0x3c, 0x68, 0x03, 0x6b, 0xbe,
  0x08, 0x9b, 0x16, 0xbe, 0x07, 0x10, 0xcb, 0xbd, 0x30, 0xbf, 0x1b, 0xbe,
  0x07, 0x8a, 0x51, 0x3e, 0xd2, 0xf5, 0x00, 0x3c, 0x45, 0x55, 0x2d, 0xbe,
  0xc0, 0xad, 0x3e, 0xbe, 0x36, 0xac, 0xde, 0xbe, 0x82, 0x4c, 0x25, 0x3e,
  0x36, 0xfb, 0x52, 0x3e, 0x54, 0x4c, 0x87, 0xbd, 0x55, 0xef, 0x1b, 0xbe,
  0xbf, 0x8f, 0xb2, 0xbe, 0xee, 0xfb, 0x8a, 0x3f, 0x83, 0x88, 0xba, 0xbe,
  0xaf, 0xbc, 0xd3, 0x3e, 0x00, 0x23, 0x06, 0xbf, 0x8c, 0x55, 0x8a, 0x3d,
  0xb8, 0x52, 0xad, 0xbe, 0xa7, 0x19, 0xe1, 0xbe, 0x38, 0x56, 0x4a, 0xbf,
  0xca, 0x56, 0xcf, 0x3b, 0x93, 0xd4, 0x3e, 0xbe, 0x9e, 0xe8, 0x21, 0x3d,
  0x0f, 0x8e, 0x1d, 0x3d, 0x69, 0xf0, 0x05, 0xbe, 0x8c, 0x02, 0xca, 0x3d,
  0x3a, 0x8f, 0x3d, 0x3e, 0xfd, 0xd8, 0x2c, 0xbe, 0xdf, 0xec, 0x72, 0xbe,
  0x81, 0x09, 0xd8, 0xbe, 0x4d, 0xb6, 0x6d, 0xbe, 0x82, 0x7f, 0x35, 0xbe,
  0xd7, 0x33, 0xa8, 0x3c, 0x5a, 0xff, 0xb9, 0xbd, 0xf3, 0x3c, 0xc4, 0x3e,
  0x79, 0xe0, 0xaa, 0xbe, 0x8b, 0x47, 0xd7, 0x3e, 0xe6, 0xc9, 0x74, 0xbf,
  0x09, 0x6d, 0xab, 0x3e, 0xba, 0x5c, 0x16, 0xbd, 0x99, 0x3a, 0x60, 0xbe,
  0xac, 0x39, 0x2f, 0x3e, 0x0b, 0xff, 0x87, 0xbd, 0xad, 0x04, 0xe8, 0xbd,
  0xf8, 0xbf, 0x33, 0xbe, 0x0c, 0xde, 0x80, 0x3c, 0x05, 0x73, 0x0a, 0x3c,
  0x7e, 0xc1, 0xe5, 0xbd, 0xf5, 0x3e, 0x02, 0x3e, 0x45, 0x27, 0x9c, 0x3d,
  0x70, 0x6f, 0xca, 0x3c, 0x11, 0xe2, 0xaa, 0xbe, 0xd9, 0xbb, 0xcc, 0xbd,
  0x6d, 0x6e, 0x63, 0x3f, 0xeb, 0xba, 0xac, 0x3d, 0xb4, 0x43, 0x8d, 0x3e,
  0xef, 0x01, 0xd4, 0x3e, 0xb6, 0x87, 0xc1, 0xbe, 0x27, 0x8d, 0x99, 0xbb,
  0x13, 0xc2, 0xff, 0x3e, 0x8a, 0xd1, 0xb0, 0xbe, 0x59, 0xb6, 0xb9, 0x3d,
  0x0e, 0xd4, 0x31, 0xbf, 0x27, 0xa9, 0x32, 0xbc, 0x84, 0xbf, 0x64, 0xbc,
  0xa6, 0x55, 0x88, 0x3e, 0x99, 0x48, 0xa4, 0x3e, 0x4b, 0x14, 0x19, 0xbe,
  0x26, 0x7f, 0xba, 0xbe, 0xd4, 0x9c, 0xdb, 0x3e, 0x67, 0x62, 0xf8, 0xbd,
  0xce, 0x6e, 0xc7, 0xbd, 0x67, 0xab, 0x84, 0xbc, 0x58, 0xfb, 0x73, 0xbe,
  0x6a, 0x6f, 0x21, 0x3f, 0x6f, 0x7e, 0x3e, 0xbe, 0xaf, 0xb8, 0xe3, 0x3c,
  0x30, 0x58, 0x9f, 0xbe, 0x6d, 0x41, 0x92, 0x3b, 0x04, 0x32, 0x97, 0x3d,
  0x20, 0x25, 0xf0, 0xbe, 0xc1, 0xef, 0x28, 0x3f, 0x8c, 0x5f, 0xf1, 0x3e,
  0xa5, 0x00, 0xed, 0x3d, 0xee, 0xbc, 0xdc, 0x3d, 0x3c, 0x0d, 0x0e, 0x3e,
  0x3e, 0x73, 0xd4, 0x3e, 0xb5, 0xcc, 0xaa, 0x3e, 0xe7, 0x49, 0xa2, 0xbe,
  0x82, 0x60, 0x20, 0x3e, 0x93, 0x17, 0x0f, 0x3e, 0x24, 0x13, 0x25, 0x3e,
  0x82, 0x94, 0xee, 0xbd, 0x17, 0xb0, 0x58, 0x3c, 0x9e, 0x8d, 0xcc, 0x3e,
  0xbb, 0xa5, 0x6f, 0xbd, 0x42, 0x63, 0xe9, 0x3d, 0x42, 0x79, 0x77, 0xbc,
  0xb5, 0x29, 0xba, 0x3e, 0xf6, 0x34, 0xac, 0x3e, 0xb8, 0x11, 0x73, 0xbd,
  0x3f, 0xe9, 0x78, 0xbf, 0x7b, 0xb2, 0xbf, 0x3e, 0x8a, 0xc2, 0x61, 0x3f,
  0x01, 0x1b, 0x8e, 0xbe, 0x4d, 0x7a, 0x90, 0xbe, 0x98, 0x27, 0x70, 0x3d,
  0xf2, 0xa8, 0x23, 0x3f, 0x4f, 0x00, 0xdf, 0x3d, 0xdc, 0x83, 0x9f, 0xbe,
  0x35, 0xe2, 0xf5, 0xbe, 0x05, 0xc8, 0x75, 0x3e, 0xc2, 0xbb, 0xa4, 0x3e,
  0x92, 0x6e, 0x1e, 0x3f, 0x92, 0x95, 0x1e, 0xbf, 0x33, 0x74, 0xe2, 0xbe,
  0x1d, 0x4c, 0x62, 0xbe, 0x43, 0x93, 0x2b, 0xbe, 0x1e, 0xf5, 0x83, 0x3e,
  0xd0, 0x28, 0x90, 0x3c, 0x76, 0x4e, 0x88, 0xbe, 0x60, 0x06, 0x5d, 0x3d,
  0x67, 0x1d, 0x81, 0xbe, 0x42, 0x83, 0x0e, 0x3e, 0xe8, 0xa3, 0x37, 0xbe,
  0xd4, 0x36, 0x8c, 0xbd, 0x18, 0xf5, 0x4d, 0x3e, 0xc0, 0x4f, 0xed, 0xbb,
  0x0a, 0x80, 0x82, 0xbe, 0x76, 0x4d, 0x5f, 0xbe, 0xad, 0x02, 0xa7, 0xbe,
  0x79, 0xe2, 0x3d, 0x3f, 0x75, 0x5f, 0x6e, 0xbf, 0xc3, 0x21, 0x38, 0xbe,
  0x36, 0xaf, 0x3b, 0xbe, 0x0d, 0x24, 0x3e, 0x3d, 0x0d, 0x0c, 0x0c, 0xbd,
  0x7b, 0x1d, 0xd1, 0xbe, 0x9e, 0x47, 0xf3, 0x3e, 0x4d, 0x06, 0xb6, 0xbe,
  0x90, 0xf7, 0x07, 0x3f, 0x6a, 0x09, 0xe5, 0x3c, 0x97, 0xdd, 0x97, 0xbd,
  0x69, 0xda, 0xde, 0x3e, 0x4b, 0x03, 0x06, 0xbe, 0x78, 0x85, 0xcf, 0x3e,
  0x44, 0x74, 0x11, 0x3f, 0x7a, 0xcf, 0x83, 0xbe, 0x43, 0x9c, 0xf1, 0xbd,
  0xaa, 0x65, 0x13, 0xbf, 0xf6, 0x7b, 0x4c, 0x3f, 0x0a, 0x6b, 0x26, 0xbe,
  0x0b, 0xcb, 0xbf, 0xbd, 0xd9, 0x44, 0x08, 0xbb, 0xea, 0x8b, 0x74, 0x3e,
  0xaa, 0xd1, 0xd0, 0xbe, 0x91, 0x97, 0xab, 0x3d, 0xa1, 0xa2, 0xd3, 0x3c,
  0xca, 0x86, 0xf5, 0x3e, 0x15, 0x3b, 0x98, 0xbd, 0x86, 0x82, 0xb7, 0x3d,
  0xc5, 0x41, 0xa5, 0xbe, 0x99, 0x47, 0x45, 0x3f, 0x3e, 0x27, 0x59, 0xbf,
  0x13, 0x6f, 0x05, 0xbf, 0xca, 0x5e, 0x92, 0xbd, 0x56, 0xdd, 0x95, 0x3e,
  0xb8, 0xce, 0xa3, 0xbe, 0xd6, 0x17, 0xdf, 0xbd, 0xc0, 0x61, 0x4e, 0x3d,
  0xdc, 0x9f, 0xc5, 0x3e, 0x8b, 0x19, 0x65, 0x3e, 0x34, 0xb7, 0xa0, 0x3e,
  0xc8, 0xd4, 0x26, 0xbd, 0x80, 0xf0, 0x5b, 0xbc, 0x98, 0x4d, 0x96, 0xbd,
  0xe8, 0x57, 0xcd, 0x3d, 0x0d, 0xaf, 0xa4, 0xbe, 0x44, 0x91, 0x56, 0xbe,
  0xdd, 0x0f, 0xfb, 0xbe, 0xe5, 0xa4, 0xbd, 0x3e, 0x4c, 0x02, 0x05, 0xbf,
  0x85, 0x23, 0x6a, 0xbc, 0x76, 0x17, 0x3e, 0x3d, 0x18, 0x8b, 0xa0, 0x3c,
  0xc2, 0x02, 0x86, 0x3f, 0x9e, 0x9c, 0x65, 0x3f, 0x99, 0x6b, 0x50, 0xbe,
  0xeb, 0x1d, 0xd8, 0xbd, 0x97, 0xb4, 0x48, 0xbd, 0x9d, 0x92, 0x14, 0xbd,
  0xd7, 0xef, 0x93, 0xbd, 0xdf, 0xb4, 0xed, 0x3d, 0x9d, 0x6d, 0x82, 0xbe,
  0x2c, 0x94, 0x1e, 0x3f, 0x7a, 0x5e, 0x4b, 0xbe, 0x9b, 0x00, 0xba, 0x3e,
  0x34, 0xef, 0xff, 0xff, 0x38, 0xef, 0xff, 0xff, 0x76, 0xf4, 0xff, 0xff,
  0x04, 0x00, 0x00, 0x00, 0xc8, 0x00, 0x00, 0x00, 0x66, 0x83, 0x9b, 0x3e,
  0x31, 0x6f, 0x02, 0x3e, 0x00, 0x00, 0x00, 0x00, 0x2f, 0x4e, 0x3d, 0x3f,
  0xa6, 0x33, 0x0b, 0xbe, 0xa8, 0x29, 0x76, 0xbf, 0xa4, 0x78, 0x83, 0xbb,
  0x28, 0xaf, 0x0e, 0xbb, 0xf5, 0xc6, 0x0c, 0xbe, 0xa6, 0xe7, 0x0d, 0x3e,
  0x4f, 0xe9, 0x82, 0x3e, 0xa6, 0x85, 0xc3, 0xbe, 0x98, 0x05, 0x55, 0x3d,
  0x26, 0x76, 0x79, 0x3e, 0xbd, 0x8c, 0xa3, 0xbe, 0x83, 0x6e, 0x07, 0xbe,
  0x00, 0x00, 0x00, 0x00, 0x3d, 0x3a, 0x46, 0xbd, 0x90, 0xfd, 0x56, 0x3d,
  0x89, 0xc9, 0x20, 0xbe, 0x47, 0x44, 0xf8, 0x3e, 0x5e, 0x00, 0xd5, 0xbd,
  0x1d, 0x58, 0x47, 0xbd, 0x0b, 0xed, 0x9b, 0xbd, 0xc0, 0x8f, 0x39, 0xbd,
  0x4f, 0xf3, 0xb2, 0x3c, 0xcb, 0xd2, 0x62, 0xbf, 0xd3, 0x7a, 0xa0, 0xbd,
  0x0e, 0x87, 0x22, 0xbc, 0xc0, 0x7e, 0x30, 0x3e, 0x84, 0xbe, 0x4f, 0xbd,
  0x88, 0xc0, 0x5d, 0xbe, 0x3b, 0x75, 0x4c, 0xbe, 0x2b, 0x8a, 0x3e, 0xbe,
  0x7f, 0xb2, 0x09, 0xbe, 0xb3, 0x86, 0x01, 0x3e, 0x0b, 0xbb, 0x15, 0x3e,
  0x00, 0x00, 0x00, 0x00, 0x00, 0x00, 0x00, 0x00, 0x73, 0x35, 0xae, 0x3e,
  0x5e, 0x18, 0xcf, 0xbe, 0x8f, 0xbe, 0x52, 0xbe, 0xa0, 0x42, 0x9d, 0x3e,
  0x0c, 0xf3, 0xbf, 0x3d, 0xaa, 0xcf, 0x94, 0x3d, 0x10, 0x65, 0xb2, 0xbd,
  0x00, 0x00, 0x00, 0x00, 0x52, 0x63, 0x11, 0xbd, 0x09, 0x1a, 0x4e, 0xbf,
  0x23, 0xaf, 0x50, 0xbd, 0x4a, 0xf5, 0xff, 0xff, 0x04, 0x00, 0x00, 0x00,
  0xc4, 0x09, 0x00, 0x00, 0xc8, 0xdf, 0xf7, 0xe1, 0x36, 0xbb, 0xf0, 0x1d,
  0x15, 0xd9, 0xf7, 0xde, 0x33, 0xd8, 0x04, 0x1c, 0xe6, 0x1b, 0x05, 0xdc,
  0xdc, 0x09, 0xf1, 0xec, 0x0b, 0xdd, 0xf8, 0x37, 0x19, 0x12, 0x0e, 0x10,
  0x31, 0xde, 0x49, 0x0b, 0xea, 0x09, 0xeb, 0x27, 0x15, 0x26, 0xc3, 0x10,
  0xf5, 0xe1, 0x15, 0x17, 0x13, 0xe8, 0xea, 0x05, 0x05, 0x0a, 0x1d, 0x14,
  0xed, 0x4a, 0xdd, 0x2c, 0x0d, 0x24, 0xea, 0x13, 0xdb, 0x0d, 0x13, 0x16,
  0xfc, 0x1a, 0x09, 0x01, 0x1d, 0x3e, 0xf2, 0x17, 0xe5, 0x1d, 0xdb, 0x1b,
  0x0c, 0xd0, 0xfc, 0xec, 0x27, 0xd2, 0xe3, 0x07, 0xe3, 0xce, 0xee, 0x03,
  0x23, 0x26, 0x47, 0x1f, 0xfa, 0xdc, 0x18, 0xe4, 0xdf, 0x0c, 0xef, 0xfe,
  0x32, 0x30, 0x12, 0x36, 0x2f, 0xf6, 0xe2, 0xff, 0xfa, 0x1d, 0x44, 0x15,
  0x18, 0xfd, 0x12, 0xce, 0x04, 0x13, 0x0c, 0xe4, 0xff, 0xf9, 0xeb, 0x07,
  0xf5, 0xd2, 0xf7, 0xf7, 0x0c, 0x1f, 0xf7, 0x1c, 0xf7, 0x1b, 0x10, 0xf7,
  0x39, 0xf6, 0x28, 0x14, 0xd3, 0x0f, 0xf1, 0x1b, 0xd0, 0xe5, 0xdb, 0x10,
  0x17, 0x05, 0xf5, 0xcb, 0x0d, 0x81, 0xf6, 0xee, 0x12, 0xf7, 0xf8, 0x37,
  0xee, 0x1c, 0x12, 0x1c, 0xfe, 0x02, 0xdd, 0x04, 0xf6, 0xd2, 0x0c, 0xe7,
  0x1a, 0x16, 0x00, 0x3b, 0xdd, 0x24, 0xe6, 0x20, 0xcf, 0xfd, 0xe5, 0xfb,
  0x17, 0xcf, 0x29, 0xe6, 0xb5, 0xf6, 0xe5, 0x03, 0xed, 0x3a, 0xc6, 0x31,
  0x00, 0x17, 0x01, 0xfd, 0x13, 0xec, 0x15, 0x05, 0x08, 0xe3, 0x12, 0xf6,
  0x11, 0x0b, 0x1a, 0x17, 0x05, 0x18, 0xf4, 0x08, 0xe3, 0x04, 0x0b, 0xef,
  0xe9, 0xff, 0xee, 0x08, 0xe1, 0x08, 0xe2, 0x12, 0xe8, 0xea, 0xf8, 0x18,
  0x10, 0xfe, 0xfd, 0x12, 0x0e, 0x0c, 0x1c, 0x04, 0x10, 0xdc, 0x19, 0xe3,
  0x06, 0xe8, 0x14, 0xef, 0xe2, 0x3c, 0xe5, 0x16, 0x1b, 0x04, 0x15, 0xfc,
  0xe2, 0x25, 0x37, 0x16, 0xf5, 0x17, 0x03, 0xe6, 0xe7, 0xe8, 0x17, 0xf9,
  0xf1, 0x0d, 0xfb, 0x04, 0x1d, 0xeb, 0x15, 0xf5, 0xcc, 0x02, 0x01, 0xf8,
  0x1a, 0x52, 0x0a, 0xf8, 0x02, 0xdd, 0xe3, 0xdf, 0xdd, 0xd5, 0xeb, 0xcc,
  0x06, 0x0e, 0x25, 0xd7, 0x0d, 0xfe, 0xf2, 0xe2, 0x34, 0x00, 0xe7, 0xe6,
  0x12, 0x0c, 0x16, 0x25, 0xf7, 0x00, 0x0f, 0x08, 0x06, 0xe3, 0x0a, 0x0b,
  0xb6, 0xeb, 0xe9, 0xc9, 0xe5, 0xee, 0x01, 0xf5, 0x08, 0xe5, 0x0a, 0xf9,
  0x1a, 0xe6, 0xd6, 0x07, 0xfb, 0x1c, 0x16, 0xd8, 0x26, 0x2a, 0x0c, 0xfa,
  0xd5, 0xff, 0x0e, 0x18, 0xd2, 0x17, 0xf0, 0x02, 0x13, 0x0f, 0x2e, 0xdc,
  0x04, 0xe4, 0x01, 0xf2, 0x04, 0x14, 0xf0, 0xf8, 0x02, 0x16, 0x1d, 0x1a,
  0xef, 0xd3, 0xf6, 0x01, 0x16, 0xf7, 0xf1, 0xee, 0x15, 0x14, 0x17, 0x01,
  0xc9, 0x18, 0x1f, 0x17, 0xe8, 0x1b, 0xfd, 0xef, 0xfb, 0xaf, 0x16, 0x26,
  0x96, 0xe4, 0xe1, 0x08, 0x19, 0x18, 0x24, 0x12, 0x01, 0x00, 0x0c, 0x16,
  0xde, 0xf3, 0x1a, 0x01, 0xd8, 0xd1, 0x02, 0x0d, 0xf2, 0xfe, 0xe2, 0xe4,
  0xeb, 0x04, 0xf9, 0x03, 0xea, 0x12, 0x02, 0xf9, 0xef, 0xfc, 0x07, 0x09,
  0xfc, 0x3f, 0xda, 0xf8, 0xe5, 0x21, 0x10, 0xd8, 0x2e, 0xfc, 0xee, 0xe2,
  0x10, 0x2b, 0x1e, 0x34, 0x0f, 0x16, 0xf1, 0x17, 0x18, 0x30, 0xfa, 0x0b,
  0xfa, 0x0e, 0x00, 0x04, 0x00, 0xef, 0x0a, 0x07, 0x05, 0xe3, 0xf5, 0x03,
  0xec, 0xdc, 0x06, 0x0a, 0x08, 0xf2, 0x0a, 0x0c, 0x1b, 0x0b, 0xe9, 0xe9,
  0xe2, 0xfa, 0x0b, 0xfe, 0xf4, 0x15, 0x12, 0x05, 0x1e, 0x0d, 0xfa, 0x17,
  0xfd, 0x0f, 0x03, 0x05, 0x07, 0xed, 0x21, 0x09, 0xe7, 0xea, 0x21, 0x09,
  0xf2, 0x03, 0xf0, 0xab, 0x17, 0x31, 0xf5, 0xff, 0x07, 0xda, 0x10, 0x0c,
  0x18, 0xeb, 0x06, 0x0d, 0xeb, 0x01, 0x06, 0x02, 0xe6, 0x1d, 0x09, 0xc9,
  0x05, 0xee, 0xeb, 0x26, 0x10, 0x30, 0xe8, 0x21, 0x22, 0x1d, 0x32, 0x22,
  0xec, 0xef, 0xed, 0x02, 0x2a, 0xf3, 0xd7, 0x09, 0xda, 0x03, 0xe6, 0xeb,
  0x3e, 0x25, 0x07, 0x0e, 0xe9, 0xf6, 0x0c, 0xfb, 0x03, 0x07, 0x03, 0x03,
  0xf1, 0xfc, 0x0a, 0x1f, 0x17, 0x08, 0xf8, 0x0b, 0x18, 0xfe, 0xf8, 0x10,
  0x06, 0x04, 0xe5, 0x04, 0x07, 0xef, 0xf0, 0x19, 0x03, 0x0d, 0xe7, 0x10,
  0x11, 0x13, 0xfc, 0xe3, 0x14, 0x0f, 0xfb, 0xfe, 0x06, 0xfe, 0x06, 0x10,
  0x18, 0xe0, 0x01, 0xde, 0x16, 0x0a, 0xf3, 0xfa, 0xee, 0xf5, 0xe4, 0x1b,
  0x14, 0x05, 0xfe, 0x05, 0xe4, 0x02, 0xee, 0x30, 0x1e, 0xed, 0x02, 0x0a,
  0x15, 0xec, 0xed, 0x03, 0x09, 0xf2, 0x07, 0x08, 0xe6, 0xed, 0x14, 0xf7,
  0xfe, 0xf9, 0x0b, 0xe4, 0x17, 0xed, 0xfc, 0xe8, 0xfd, 0xde, 0x01, 0xf8,
  0x0d, 0xe9, 0xef, 0xfb, 0x19, 0x02, 0xfd, 0x13, 0x0b, 0x0f, 0x30, 0xe3,
  0x04, 0x0e, 0xf3, 0xf4, 0xd6, 0xf6, 0xfa, 0xec, 0x14, 0x00, 0xfd, 0x00,
  0x11, 0xf2, 0xfb, 0x1c, 0x13, 0x1e, 0x21, 0xf9, 0xe3, 0x0e, 0x0f, 0x10,
  0xeb, 0x21, 0xfc, 0xf1, 0xef, 0xf8, 0x25, 0x08, 0x10, 0x06, 0x14, 0x07,
  0x0d, 0xf3, 0xec, 0x13, 0xf1, 0xe5, 0x24, 0x02, 0x02, 0xf8, 0xe3, 0xfe,
  0x29, 0x14, 0xe3, 0xe8, 0x09, 0xfd, 0x09, 0xa7, 0x12, 0x0f, 0x01, 0x17,
  0xfe, 0x03, 0x02, 0xef, 0x0a, 0xea, 0xe6, 0x13, 0x10, 0x0e, 0x06, 0xfe,
  0xf8, 0xfb, 0xfc, 0x1d, 0x20, 0xf3, 0xb7, 0xe7, 0x0a, 0x16, 0xfa, 0xe0,
  0x11, 0xe2, 0x12, 0xf3, 0xe1, 0xea, 0xf2, 0xf9, 0xf6, 0xe9, 0x13, 0x01,
  0x1c, 0xe3, 0x13, 0xe2, 0x18, 0x11, 0x0e, 0x09, 0x06, 0xf8, 0xfc, 0xf3,
  0x06, 0x05, 0x03, 0xed, 0x15, 0x14, 0xfb, 0xe2, 0x00, 0xe9, 0x05, 0xfd,
  0x22, 0xe7, 0x0a, 0x1b, 0x1b, 0xef, 0xee, 0x08, 0x05, 0xeb, 0xef, 0x01,
  0xef, 0x07, 0x06, 0x07, 0xf6, 0x09, 0xec, 0xea, 0x07, 0xf7, 0x0b, 0x05,
  0xf6, 0x05, 0x11, 0x0a, 0x06, 0xfb, 0xf0, 0xff, 0xec, 0x1b, 0xee, 0x0f,
  0xf7, 0x19, 0x03, 0x00, 0x1c, 0x10, 0x08, 0xe2, 0xea, 0x19, 0xee, 0xf9,
  0xf3, 0x01, 0x12, 0x14, 0x1a, 0x02, 0x18, 0x15, 0xf9, 0x1b, 0x0b, 0x03,
  0xff, 0xe8, 0xf1, 0xf1, 0x0c, 0x07, 0xe8, 0x15, 0x04, 0xed, 0xf5, 0xff,
  0xf9, 0xfd, 0x1f, 0xf6, 0x1b, 0xf4, 0x02, 0x0d, 0x10, 0xf0, 0xf8, 0xf9,
  0xf6, 0x06, 0x14, 0xf7, 0xef, 0x05, 0x15, 0xe8, 0x1f, 0xe9, 0x1c, 0x10,
  0x11, 0x28, 0x0c, 0xec, 0xe9, 0xe5, 0x18, 0x23, 0x07, 0xff, 0xf6, 0xfd,
  0xf9, 0x1c, 0x15, 0x07, 0xfe, 0x15, 0xe9, 0x13, 0x10, 0x17, 0x0d, 0x01,
  0xe8, 0x0b, 0x20, 0xf1, 0x0b, 0x1d, 0x16, 0xbe, 0x43, 0xfc, 0xeb, 0x28,
  0x46, 0xfe, 0x19, 0x33, 0xe6, 0x0f, 0xee, 0x05, 0xf1, 0xe9, 0x15, 0xdb,
  0xf7, 0xf6, 0x07, 0x15, 0x1b, 0xfc, 0xb4, 0xf1, 0xd7, 0xf6, 0x10, 0xfd,
  0x2b, 0x11, 0xff, 0xb9, 0xf1, 0x1d, 0x04, 0xd8, 0xfa, 0x3b, 0xeb, 0xea,
  0xfc, 0x1f, 0x0d, 0xe5, 0xcf, 0xe4, 0x0d, 0x1d, 0x09, 0x34, 0xfa, 0xeb,
  0xe8, 0x37, 0xe9, 0xd8, 0xde, 0xed, 0xea, 0xe5, 0xdd, 0x1c, 0x1c, 0xe2,
  0x00, 0x0f, 0xff, 0x13, 0x0b, 0x18, 0xf1, 0xef, 0xce, 0xf2, 0xf3, 0x06,
  0xf4, 0x04, 0x0d, 0x21, 0xf7, 0xf3, 0x00, 0x06, 0xf6, 0xee, 0xe0, 0xec,
  0x15, 0x0c, 0xd8, 0x20, 0xe7, 0xf3, 0xd8, 0xfa, 0x04, 0x0b, 0x1b, 0x13,
  0xe3, 0xf2, 0x0a, 0x22, 0xec, 0xfd, 0x14, 0x02, 0xeb, 0x16, 0x0c, 0x02,
  0x06, 0xf8, 0x12, 0xe7, 0xee, 0x1c, 0x02, 0xde, 0x08, 0x14, 0x15, 0x14,
  0xec, 0x17, 0xf2, 0xf7, 0x04, 0x02, 0x0b, 0x00, 0x09, 0x08, 0x0d, 0x07,
  0x07, 0x29, 0xf9, 0xe6, 0xdb, 0x21, 0xed, 0x11, 0xf6, 0x1f, 0xf1, 0xf3,
  0xf9, 0x13, 0xff, 0x14, 0x13, 0xf2, 0x0d, 0x18, 0x04, 0x08, 0xf3, 0xed,
  0xec, 0xe2, 0x1c, 0xea, 0xf5, 0xf5, 0xe9, 0xee, 0x1c, 0xe6, 0x11, 0xef,
  0x0f, 0xf9, 0xe8, 0xf5, 0xfb, 0x11, 0x16, 0xf8, 0x09, 0xf9, 0xe3, 0xe7,
  0xfc, 0xeb, 0xe3, 0xeb, 0xe2, 0x0d, 0x16, 0x00, 0xe6, 0x18, 0xfa, 0xf7,
  0x10, 0xf5, 0x09, 0x0d, 0x0b, 0x10, 0x05, 0xe1, 0xed, 0xc9, 0xdc, 0xd5,
  0x09, 0xef, 0x0f, 0xe0, 0xff, 0x0c, 0xed, 0xd1, 0x17, 0x03, 0x15, 0x00,
  0x08, 0x17, 0x2a, 0x0d, 0x13, 0xfe, 0x14, 0x35, 0x1d, 0xf8, 0xdf, 0x29,
  0x20, 0x18, 0x1d, 0x45, 0x0e, 0x03, 0xe6, 0x1a, 0xdf, 0x15, 0xf8, 0xef,
  0xd7, 0x0a, 0xf5, 0x14, 0x01, 0x13, 0x15, 0x1c, 0xf3, 0x13, 0xe5, 0x02,
  0xea, 0xdf, 0x10, 0x21, 0xf9, 0xf1, 0x07, 0x0c, 0xff, 0x11, 0xf4, 0x0f,
  0x1a, 0xf9, 0xfa, 0xe6, 0x14, 0xe1, 0x1f, 0xeb, 0x24, 0x06, 0xf1, 0x13,
  0xed, 0x16, 0xfe, 0x09, 0xec, 0xff, 0x03, 0xee, 0x16, 0x0e, 0x03, 0x13,
  0x04, 0xf3, 0x22, 0xf9, 0xe2, 0xfd, 0xe7, 0xf5, 0x0a, 0xe8, 0xf1, 0xdc,
  0xec, 0x0b, 0x12, 0xf5, 0xbb, 0x18, 0x0a, 0x0e, 0x1a, 0x03, 0xf7, 0x1d,
  0xd9, 0xf2, 0xe8, 0xf6, 0xee, 0xf9, 0xf8, 0x09, 0xd3, 0x20, 0xf8, 0x11,
  0xe0, 0x17, 0x01, 0x18, 0x18, 0xf0, 0x1e, 0x13, 0x22, 0xdc, 0x23, 0x1c,
  0xf5, 0x0e, 0x1d, 0x27, 0xf0, 0x17, 0xee, 0xf8, 0xe9, 0x05, 0xfa, 0xe4,
  0x13, 0x13, 0x0d, 0x17, 0xf5, 0xf7, 0xe8, 0xf3, 0x05, 0x13, 0xfc, 0x03,
  0xf7, 0x0a, 0xef, 0xe3, 0x15, 0xee, 0xf3, 0x05, 0xf1, 0x0f, 0x08, 0x0a,
  0x05, 0xdd, 0xe6, 0x16, 0x07, 0x13, 0xf1, 0x0f, 0xf6, 0x0b, 0x03, 0xed,
  0xfa, 0xf4, 0xec, 0xe0, 0x0f, 0x0c, 0xf2, 0xee, 0x03, 0x0b, 0xe2, 0xf8,
  0xe9, 0xe7, 0x13, 0x07, 0x10, 0x19, 0xe9, 0xf2, 0x01, 0xf5, 0x0c, 0xff,
  0x1b, 0xf7, 0x19, 0xef, 0x08, 0xff, 0x04, 0xf1, 0xeb, 0xf4, 0xf5, 0xe8,
  0xef, 0xf9, 0xf9, 0xe7, 0x13, 0x02, 0x04, 0x12, 0xe2, 0xf6, 0x0f, 0xe2,
  0x12, 0x1a, 0x0b, 0x00, 0x04, 0xe0, 0xed, 0x04, 0xff, 0xf6, 0xcc, 0xf4,
  0xfb, 0xf6, 0x4e, 0xfe, 0x10, 0x35, 0xff, 0xf3, 0x02, 0x15, 0xeb, 0xfb,
  0xfb, 0xfd, 0x18, 0x1e, 0x08, 0xde, 0xda, 0x15, 0xf7, 0x0c, 0xf8, 0xfd,
  0x1e, 0x1f, 0xff, 0xf3, 0x0d, 0x24, 0x28, 0x0a, 0x08, 0x08, 0x28, 0x11,
  0x1c, 0xe9, 0xe9, 0x35, 0xe7, 0xeb, 0xe3, 0x1f, 0x1d, 0x0c, 0xfc, 0xe3,
  0xfe, 0xe2, 0x1a, 0x20, 0x1e, 0x15, 0xfb, 0xfd, 0xfe, 0xf5, 0xf8, 0xfc,
  0xf4, 0xff, 0x03, 0xfd, 0x04, 0xfb, 0xf1, 0x1d, 0xfc, 0x0a, 0xf6, 0xf8,
  0xf3, 0x01, 0x04, 0xe7, 0x08, 0x13, 0xea, 0x14, 0xfe, 0x19, 0xf4, 0xdb,
  0x1b, 0x00, 0xed, 0x1f, 0xf5, 0x18, 0x0b, 0xf8, 0xf2, 0x1f, 0xe7, 0xf1,
  0x28, 0x0d, 0x06, 0xee, 0xe7, 0x1b, 0xdb, 0xe8, 0x06, 0x14, 0x06, 0xf3,
  0x12, 0xfe, 0xe6, 0xd2, 0x0f, 0xd3, 0xf8, 0xe2, 0xe2, 0xf5, 0xe3, 0xe4,
  0x03, 0x09, 0x11, 0x1b, 0xd2, 0xea, 0xeb, 0xfd, 0xf1, 0xe4, 0x1a, 0x08,
  0x24, 0x08, 0xfc, 0x12, 0xe5, 0x11, 0xed, 0x1c, 0xda, 0x0b, 0xfe, 0x06,
  0xee, 0xe2, 0xff, 0xf1, 0x05, 0xe6, 0x18, 0xf7, 0xfa, 0xe8, 0xf3, 0x13,
  0x18, 0xed, 0xf7, 0x12, 0xe6, 0xf4, 0xe6, 0xf5, 0x1b, 0x15, 0xfb, 0xf5,
  0x08, 0xfc, 0xec, 0x04, 0xf8, 0x0d, 0x13, 0x18, 0xe4, 0xeb, 0x1a, 0x07,
  0xe7, 0xfa, 0x03, 0xea, 0x06, 0xeb, 0x0a, 0xf8, 0x18, 0x0a, 0xfc, 0x00,
  0xf1, 0xf8, 0x0d, 0x18, 0x00, 0xe6, 0x03, 0x05, 0xf7, 0x07, 0x21, 0xfe,
  0x1b, 0xe2, 0x13, 0x07, 0x2a, 0x21, 0x0c, 0xe7, 0x17, 0x16, 0x06, 0xf0,
  0x1a, 0x2d, 0x04, 0xe8, 0x0c, 0xcb, 0x13, 0x13, 0x40, 0x03, 0xec, 0xf4,
  0x0e, 0x14, 0xe5, 0x0b, 0xdb, 0xe6, 0xd8, 0xf3, 0xfb, 0xd6, 0x17, 0x30,
  0x31, 0x00, 0xbd, 0x2e, 0xe2, 0xf6, 0xb6, 0x01, 0xf0, 0x13, 0xe4, 0xe8,
  0x0c, 0x04, 0xfb, 0xfa, 0x18, 0xfe, 0xef, 0xfb, 0x17, 0x11, 0xea, 0x10,
  0x0d, 0x00, 0xe3, 0x18, 0xfa, 0xe7, 0xec, 0x12, 0xfc, 0x12, 0xec, 0x18,
  0x18, 0x12, 0xf2, 0xfd, 0x0c, 0xf1, 0x05, 0xe7, 0x16, 0xe7, 0xfd, 0x1d,
  0xe4, 0xf5, 0x15, 0x13, 0x08, 0x18, 0xfb, 0x0f, 0xf1, 0xe8, 0xe9, 0x15,
  0xed, 0x0c, 0x13, 0x09, 0xfd, 0x03, 0x10, 0x04, 0xf8, 0xfd, 0x0d, 0xff,
  0xfb, 0xe3, 0xe7, 0xe3, 0x02, 0xf7, 0x1a, 0x0e, 0xff, 0xef, 0x1b, 0xf4,
  0x19, 0xe4, 0x1c, 0x0b, 0x1e, 0x0a, 0xfc, 0x1d, 0x15, 0xf1, 0xf6, 0x07,
  0xea, 0x1b, 0xf0, 0xe3, 0x02, 0xec, 0xf3, 0xf0, 0x1a, 0xfb, 0x18, 0xee,
  0xeb, 0xef, 0x0b, 0x25, 0x35, 0x07, 0xfe, 0x0f, 0x15, 0xe7, 0xdf, 0x02,
  0x05, 0xeb, 0xe5, 0xfa, 0x0e, 0x01, 0xe8, 0xf0, 0x0c, 0x0e, 0x07, 0x1b,
  0x14, 0xfc, 0xeb, 0x05, 0xfd, 0x03, 0xfb, 0x30, 0xf1, 0x28, 0x0d, 0xf8,
  0x20, 0x11, 0xfa, 0x25, 0x1a, 0xe0, 0xf7, 0x23, 0xf2, 0xf8, 0xe3, 0x04,
  0xfb, 0x1f, 0xf8, 0x2c, 0x0e, 0xba, 0x1c, 0xd2, 0xf6, 0x11, 0x1e, 0x0a,
  0x28, 0x0e, 0xe0, 0xfd, 0x2a, 0x06, 0xe9, 0xfe, 0xfe, 0x0f, 0xd2, 0xfc,
  0x10, 0xf1, 0xec, 0xf4, 0x06, 0x1d, 0x1c, 0x19, 0x08, 0xfa, 0x10, 0xf6,
  0xd4, 0xe9, 0xd7, 0xe9, 0x0c, 0x03, 0x19, 0x14, 0xfb, 0x34, 0xdd, 0x0f,
  0xfc, 0x02, 0xe8, 0xe2, 0x17, 0x0a, 0xfd, 0x09, 0x0d, 0x1a, 0x1a, 0x12,
  0xfd, 0x03, 0xed, 0xf7, 0x0c, 0xe9, 0x05, 0x08, 0xe3, 0x1e, 0x05, 0xfe,
  0xf3, 0xf5, 0x1e, 0xf4, 0xfd, 0xef, 0xf9, 0x14, 0x0a, 0x00, 0x12, 0x01,
  0xf2, 0x04, 0x15, 0xf8, 0xfe, 0x1b, 0x05, 0x0a, 0xf2, 0xe1, 0x11, 0xf5,
  0xe8, 0x08, 0xfa, 0xe3, 0x05, 0x1b, 0xd6, 0x10, 0xfe, 0xef, 0xf3, 0xf2,
  0xf8, 0x0d, 0x11, 0x0a, 0x02, 0xd7, 0x12, 0x13, 0x04, 0xd9, 0xf0, 0x12,
  0xdc, 0xd7, 0xed, 0xf9, 0x03, 0x01, 0xea, 0xff, 0xec, 0xd9, 0x10, 0xdf,
  0xdc, 0x23, 0x00, 0x03, 0x30, 0x2b, 0x26, 0xf8, 0xf0, 0xfb, 0xcd, 0x1a,
  0xfa, 0xe7, 0x15, 0xfb, 0xe1, 0xff, 0x30, 0x12, 0x19, 0xeb, 0x1d, 0x0c,
  0xf0, 0x1e, 0x07, 0xf6, 0xe7, 0x05, 0xe0, 0x17, 0x12, 0x02, 0xef, 0xfb,
  0x12, 0x05, 0x15, 0x01, 0x20, 0xf2, 0x15, 0xeb, 0xe7, 0x14, 0xe3, 0x06,
  0x08, 0xe4, 0xf1, 0xdb, 0x12, 0xf7, 0xf2, 0xfb, 0x16, 0x04, 0x0b, 0x1a,
  0x11, 0xe6, 0x08, 0xd3, 0x0d, 0xfe, 0xe7, 0x02, 0x07, 0x02, 0x17, 0x16,
  0xf6, 0xf6, 0x1c, 0x09, 0x13, 0xe8, 0x0e, 0xf8, 0xf2, 0xfc, 0x1e, 0xfb,
  0xff, 0xe2, 0x0f, 0x18, 0x00, 0x00, 0x11, 0x14, 0x19, 0x06, 0xe2, 0xf9,
  0xfb, 0xe3, 0xf9, 0xe2, 0x04, 0xe3, 0xe5, 0x05, 0xe3, 0xe4, 0x1c, 0x0a,
  0x13, 0x05, 0xfd, 0xe3, 0xed, 0x02, 0x06, 0xfb, 0xeb, 0xf2, 0x13, 0xea,
  0x19, 0xe3, 0xf8, 0x03, 0xec, 0xf2, 0x1b, 0x03, 0xec, 0xec, 0xf8, 0xf0,
  0xe8, 0x18, 0xfa, 0x01, 0xe3, 0x0a, 0xf7, 0xe4, 0xff, 0xea, 0xec, 0x1e,
  0x06, 0x1e, 0x04, 0xe6, 0x0d, 0x0c, 0xe4, 0xeb, 0xff, 0x12, 0x1e, 0x04,
  0x16, 0x00, 0xfb, 0xf8, 0xe7, 0x10, 0x06, 0x04, 0xe6, 0xe0, 0xf3, 0xe8,
  0x1b, 0xff, 0x07, 0xe9, 0xe9, 0xe5, 0xfa, 0x0f, 0x01, 0x0c, 0x18, 0x02,
  0x0c, 0xf4, 0xf4, 0x07, 0x1e, 0x18, 0xf6, 0xe5, 0xf3, 0x03, 0x0a, 0xff,
  0x00, 0x19, 0x0f, 0x0d, 0xff, 0x0f, 0x0a, 0xec, 0x06, 0xf9, 0x01, 0xe3,
  0xf7, 0x02, 0x11, 0x05, 0x15, 0x02, 0x12, 0xea, 0xfa, 0xea, 0x0a, 0xf1,
  0xe9, 0x1d, 0xe4, 0xfb, 0x12, 0x10, 0x09, 0xfc, 0x08, 0x21, 0xee, 0xf3,
  0x0d, 0xf9, 0x12, 0xe6, 0x16, 0x1e, 0x01, 0xf1, 0x07, 0x1a, 0x18, 0xda,
  0x20, 0x18, 0x1c, 0x16, 0xfe, 0x0c, 0x15, 0x05, 0x16, 0xf0, 0xf7, 0xfc,
  0xe4, 0x18, 0xf4, 0xf6, 0xff, 0xf4, 0xe4, 0x10, 0xfe, 0x09, 0x13, 0x18,
  0xf3, 0x0f, 0x13, 0x05, 0xf3, 0xf9, 0xf8, 0xe1, 0xf9, 0xd9, 0x23, 0xf2,
  0x06, 0xca, 0x03, 0x15, 0x0c, 0x16, 0x2b, 0x18, 0x1d, 0x02, 0x13, 0x00,
  0x1c, 0xb5, 0x12, 0x07, 0x0a, 0x18, 0xe5, 0xe8, 0x28, 0x30, 0x1b, 0x06,
  0xfa, 0x1a, 0x2b, 0x12, 0x0b, 0xf8, 0x09, 0xee, 0xef, 0x0c, 0x03, 0xdd,
  0xc2, 0xec, 0x29, 0xe0, 0xf8, 0xf7, 0x45, 0x01, 0xe4, 0x1b, 0xfb, 0x02,
  0x12, 0xf8, 0xed, 0x08, 0x08, 0x0f, 0x1d, 0xf3, 0xf2, 0xf7, 0x11, 0xf4,
  0xfd, 0x14, 0x01, 0xf9, 0x15, 0x13, 0xf3, 0x0d, 0x0a, 0x15, 0x09, 0xe7,
  0x12, 0xe3, 0xfc, 0x02, 0xfc, 0x0e, 0xec, 0x16, 0xf8, 0xed, 0xed, 0xeb,
  0x19, 0x0f, 0x13, 0x03, 0xe9, 0xfa, 0x0a, 0xf3, 0x0c, 0x0b, 0xe2, 0xe5,
  0xf1, 0x08, 0xf0, 0xd5, 0xfa, 0xe2, 0xf2, 0x16, 0x28, 0x12, 0xfe, 0x28,
  0xed, 0xee, 0xf6, 0x0d, 0x02, 0x2b, 0x00, 0xfe, 0xe7, 0xe4, 0x01, 0xe3,
  0x29, 0xf1, 0xfd, 0xf4, 0xff, 0x09, 0xe1, 0x10, 0xf6, 0xed, 0x03, 0xe8,
  0xed, 0x15, 0x11, 0x03, 0x08, 0x05, 0xd3, 0xf7, 0x0a, 0xe6, 0x49, 0x0e,
  0x11, 0x17, 0xfe, 0xf0, 0xe1, 0x08, 0xf6, 0xde, 0xf2, 0x1b, 0xf2, 0x11,
  0xe7, 0x15, 0xfc, 0xec, 0xfb, 0x0b, 0x0c, 0xf5, 0x05, 0xea, 0xe9, 0x06,
  0xe9, 0xed, 0xe7, 0xf1, 0x23, 0xe1, 0x0d, 0xdf, 0x0f, 0xe7, 0x1b, 0x01,
  0xe8, 0xeb, 0x0f, 0x1a, 0x10, 0xeb, 0xf6, 0x01, 0xe7, 0xf8, 0x11, 0xf6,
  0x1e, 0xe7, 0xea, 0x15, 0xf9, 0x0f, 0xcc, 0xe9, 0xe8, 0x24, 0x03, 0x09,
  0x27, 0xfe, 0xe0, 0xf3, 0x06, 0xf9, 0x0d, 0xf4, 0x19, 0x17, 0x2e, 0x06,
  0xe7, 0xf4, 0xfc, 0x15, 0xfc, 0x04, 0xc0, 0x00, 0x08, 0xef, 0xef, 0xfe,
  0x12, 0x13, 0xc6, 0x1a, 0x13, 0x0c, 0xea, 0x1b, 0x04, 0x00, 0x11, 0x0a,
  0xf0, 0x1b, 0x14, 0x16, 0x1a, 0xea, 0xfb, 0xfe, 0x15, 0xff, 0x11, 0xe7,
  0x01, 0xec, 0xff, 0x03, 0xf3, 0xe8, 0xe7, 0x0a, 0xe9, 0x0c, 0x0f, 0xf7,
  0xfe, 0xeb, 0xf9, 0x0c, 0xef, 0x0e, 0x12, 0x02, 0x18, 0x0d, 0xf1, 0xec,
  0xe3, 0xe3, 0x09, 0xeb, 0x07, 0x1a, 0xf5, 0x08, 0x07, 0x1a, 0x1b, 0xff,
  0xf2, 0xe3, 0x0d, 0xf0, 0xf4, 0xe8, 0xe8, 0xf7, 0xe8, 0x03, 0xc3, 0xd1,
  0x0c, 0xf1, 0xfe, 0x65, 0x12, 0x12, 0xa9, 0xf8, 0x38, 0x17, 0x02, 0xe4,
  0x0d, 0x3a, 0xde, 0x15, 0xfc, 0xc7, 0x0a, 0xdf, 0x0d, 0x31, 0x11, 0x20,
  0x0b, 0xee, 0xcb, 0xfb, 0xe2, 0xff, 0x1a, 0x14, 0x09, 0x27, 0xe5, 0xb8,
  0x09, 0xfd, 0x0a, 0x05, 0x1d, 0x12, 0xfc, 0x01, 0x1a, 0xff, 0xff, 0xff,
  0x04, 0x00, 0x00, 0x00, 0xc8, 0x00, 0x00, 0x00, 0x18, 0x74, 0xbe, 0xbe,
  0xc5, 0x98, 0xc6, 0x3d, 0xc2, 0x3b, 0x58, 0xbe, 0x72, 0x3a, 0xeb, 0x3e,
  0x33, 0x0d, 0x56, 0xbd, 0xc4, 0x09, 0x49, 0xbe, 0x6d, 0xa6, 0x6c, 0x3e,
  0xa8, 0x12, 0xe1, 0xbd, 0xef, 0xd1, 0x1a, 0x3e, 0xad, 0x69, 0x2b, 0x3c,
  0x83, 0x57, 0x6b, 0xbd, 0x00, 0xb2, 0x82, 0xbd, 0x0d, 0xf0, 0x27, 0xbe,
  0x8b, 0x22, 0x34, 0xbc, 0x82, 0x9f, 0x66, 0xbd, 0x97, 0x17, 0x58, 0x3d,
  0x11, 0x4f, 0xe9, 0x3c, 0x98, 0x32, 0x95, 0xbd, 0x91, 0x50, 0xb3, 0xbe,
  0x67, 0x45, 0x00, 0x3e, 0x9a, 0xbb, 0x92, 0x3e, 0x16, 0x5f, 0xa4, 0xbc,
  0x4d, 0x3a, 0x51, 0x3e, 0x79, 0xdf, 0x04, 0xbe, 0x31, 0x52, 0x37, 0xbe,
  0x38, 0xbc, 0x69, 0xbd, 0xa8, 0x50, 0xae, 0xbd, 0xa9, 0x61, 0x0d, 0xbc,
  0xae, 0xaf, 0x19, 0xbe, 0x9d, 0xcd, 0xfe, 0xbd, 0x75, 0x3c, 0xa9, 0xbc,
  0x4c, 0xee, 0x0c, 0x3d, 0xe0, 0x53, 0xd4, 0xbc, 0x5d, 0x41, 0x4d, 0xbc,
  0xee, 0x0c, 0x96, 0xbd, 0x14, 0x63, 0x5d, 0x3e, 0x47, 0x7d, 0x38, 0xbc,
  0xcc, 0x38, 0x14, 0x3e, 0x3a, 0x05, 0xe2, 0x3c, 0x00, 0x00, 0x00, 0x00,
  0x8b, 0x1d, 0xa7, 0xbd, 0x00, 0xe1, 0x0f, 0xbe, 0x3e, 0xe5, 0xe0, 0xbb,
  0xec, 0x43, 0x49, 0xbe, 0xc9, 0xda, 0xd6, 0xbd, 0x4c, 0xd9, 0x4f, 0x3e,
  0x3a, 0xd2, 0xa1, 0xbc, 0xb8, 0x58, 0x46, 0xbe, 0x25, 0x58, 0x8a, 0xbc,
  0x1f, 0x2a, 0xec, 0x3e, 0xee, 0xff, 0xff, 0xff, 0x04, 0x00, 0x00, 0x00,
  0x04, 0x00, 0x00, 0x00, 0x96, 0xb4, 0x7e, 0x3f, 0x00, 0x00, 0x06, 0x00,
  0x08, 0x00, 0x04, 0x00, 0x06, 0x00, 0x00, 0x00, 0x04, 0x00, 0x00, 0x00,
  0xc8, 0x00, 0x00, 0x00, 0x49, 0x24, 0xa1, 0xbf, 0xa2, 0x5c, 0x15, 0x3f,
  0x33, 0xf9, 0xea, 0xbe, 0x2b, 0x2a, 0xd6, 0xbf, 0x34, 0x7f, 0x4b, 0xbe,
  0xba, 0xd6, 0x7e, 0x3f, 0xf1, 0x08, 0xd4, 0xbe, 0x19, 0xad, 0xa6, 0x3f,
  0x9a, 0x90, 0x0a, 0x3f, 0xc2, 0xe8, 0x09, 0x3e, 0x1b, 0x63, 0x25, 0xbf,
  0x78, 0x35, 0x90, 0x3d, 0x96, 0xf3, 0xe2, 0x3e, 0x58, 0xdc, 0x5b, 0x3e,
  0xe3, 0xb8, 0x66, 0x3f, 0x62, 0x4e, 0x92, 0xbd, 0x5a, 0x02, 0xb3, 0xbc,
  0x7f, 0xf9, 0x44, 0x3e, 0x7f, 0x1e, 0x8e, 0x3f, 0xcb, 0x6e, 0x2c, 0xbf,
  0x59, 0x91, 0xa3, 0xbe, 0xe5, 0xfa, 0xd0, 0x3d, 0x1e, 0x94, 0x10, 0x3f,
  0x7c, 0xcd, 0x7e, 0x3e, 0x12, 0x88, 0x6b, 0xbf, 0x45, 0x63, 0xa2, 0x3e,
  0xad, 0x2b, 0xa0, 0x3d, 0x19, 0xe0, 0x19, 0xbf, 0x5e, 0xa5, 0x81, 0x3e,
  0xcb, 0x8b, 0x4b, 0xbf, 0x20, 0xfa, 0x96, 0xbd, 0x6f, 0x25, 0xfc, 0xbe,
  0x81, 0xcd, 0xd0, 0x3d, 0xeb, 0x82, 0xb2, 0x3d, 0x2c, 0x94, 0x86, 0x3e,
  0x69, 0xaf, 0x8d, 0xbe, 0xbe, 0x14, 0x72, 0x3d, 0xae, 0x40, 0xad, 0x3e,
  0x08, 0xae, 0x16, 0xbf, 0x01, 0x52, 0x9e, 0x3e, 0xf4, 0x04, 0x72, 0x3e,
  0x97, 0x04, 0x92, 0xbe, 0x92, 0x13, 0xa2, 0x3d, 0x80, 0x08, 0x94, 0xbf,
  0x71, 0xa4, 0x83, 0xbc, 0x6b, 0xc4, 0x10, 0xbf, 0xe9, 0x5d, 0xa0, 0x3e,
  0x94, 0x24, 0x4d, 0xbf, 0x2b, 0xe5, 0x84, 0xbe, 0xe9, 0xf4, 0x8a, 0xbf,
  0xa0, 0xfb, 0xff, 0xff, 0x0f, 0x00, 0x00, 0x00, 0x54, 0x4f, 0x43, 0x4f,
  0x20, 0x43, 0x6f, 0x6e, 0x76, 0x65, 0x72, 0x74, 0x65, 0x64, 0x2e, 0x00,
  0x01, 0x00, 0x00, 0x00, 0x10, 0x00, 0x00, 0x00, 0x0c, 0x00, 0x14, 0x00,
  0x04, 0x00, 0x08, 0x00, 0x0c, 0x00, 0x10, 0x00, 0x0c, 0x00, 0x00, 0x00,
  0xf0, 0x00, 0x00, 0x00, 0xe4, 0x00, 0x00, 0x00, 0xd8, 0x00, 0x00, 0x00,
  0x04, 0x00, 0x00, 0x00, 0x03, 0x00, 0x00, 0x00, 0x90, 0x00, 0x00, 0x00,
  0x48, 0x00, 0x00, 0x00, 0x04, 0x00, 0x00, 0x00, 0xce, 0xff, 0xff, 0xff,
  0x00, 0x00, 0x00, 0x08, 0x18, 0x00, 0x00, 0x00, 0x0c, 0x00, 0x00, 0x00,
  0x04, 0x00, 0x00, 0x00, 0x04, 0xfc, 0xff, 0xff, 0x01, 0x00, 0x00, 0x00,
  0x00, 0x00, 0x00, 0x00, 0x03, 0x00, 0x00, 0x00, 0x07, 0x00, 0x00, 0x00,
  0x08, 0x00, 0x00, 0x00, 0x09, 0x00, 0x00, 0x00, 0x00, 0x00, 0x0e, 0x00,
  0x14, 0x00, 0x00, 0x00, 0x08, 0x00, 0x0c, 0x00, 0x07, 0x00, 0x10, 0x00,
  0x0e, 0x00, 0x00, 0x00, 0x00, 0x00, 0x00, 0x08, 0x1c, 0x00, 0x00, 0x00,
  0x10, 0x00, 0x00, 0x00, 0x04, 0x00, 0x00, 0x00, 0xba, 0xff, 0xff, 0xff,
  0x00, 0x00, 0x00, 0x01, 0x01, 0x00, 0x00, 0x00, 0x07, 0x00, 0x00, 0x00,
  0x03, 0x00, 0x00, 0x00, 0x04, 0x00, 0x00, 0x00, 0x05, 0x00, 0x00, 0x00,
  0x06, 0x00, 0x00, 0x00, 0x00, 0x00, 0x0e, 0x00, 0x16, 0x00, 0x00, 0x00,
  0x08, 0x00, 0x0c, 0x00, 0x07, 0x00, 0x10, 0x00, 0x0e, 0x00, 0x00, 0x00,
  0x00, 0x00, 0x00, 0x08, 0x24, 0x00, 0x00, 0x00, 0x18, 0x00, 0x00, 0x00,
  0x0c, 0x00, 0x00, 0x00, 0x00, 0x00, 0x06, 0x00, 0x08, 0x00, 0x07, 0x00,
  0x06, 0x00, 0x00, 0x00, 0x00, 0x00, 0x00, 0x01, 0x01, 0x00, 0x00, 0x00,
  0x04, 0x00, 0x00, 0x00, 0x03, 0x00, 0x00, 0x00, 0x01, 0x00, 0x00, 0x00,
  0x02, 0x00, 0x00, 0x00, 0x03, 0x00, 0x00, 0x00, 0x01, 0x00, 0x00, 0x00,
  0x00, 0x00, 0x00, 0x00, 0x01, 0x00, 0x00, 0x00, 0x01, 0x00, 0x00, 0x00,
  0x0a, 0x00, 0x00, 0x00, 0x28, 0x03, 0x00, 0x00, 0xc0, 0x02, 0x00, 0x00,
  0x60, 0x02, 0x00, 0x00, 0x18, 0x02, 0x00, 0x00, 0xd4, 0x01, 0x00, 0x00,
  0x48, 0x01, 0x00, 0x00, 0xf0, 0x00, 0x00, 0x00, 0xac, 0x00, 0x00, 0x00,
  0x4c, 0x00, 0x00, 0x00, 0x04, 0x00, 0x00, 0x00, 0x0e, 0xfd, 0xff, 0xff,
  0x38, 0x00, 0x00, 0x00, 0x02, 0x00, 0x00, 0x00, 0x0c, 0x00, 0x00, 0x00,
  0x04, 0x00, 0x00, 0x00, 0x00, 0xfd, 0xff, 0xff, 0x1e, 0x00, 0x00, 0x00,
  0x73, 0x65, 0x71, 0x75, 0x65, 0x6e, 0x74, 0x69, 0x61, 0x6c, 0x2f, 0x64,
  0x65, 0x6e, 0x73, 0x65, 0x5f, 0x32, 0x2f, 0x4d, 0x61, 0x74, 0x4d, 0x75,
  0x6c, 0x5f, 0x62, 0x69, 0x61, 0x73, 0x00, 0x00, 0x01, 0x00, 0x00, 0x00,
  0x01, 0x00, 0x00, 0x00, 0x52, 0xfd, 0xff, 0xff, 0x4c, 0x00, 0x00, 0x00,
  0x01, 0x00, 0x00, 0x00, 0x0c, 0x00, 0x00, 0x00, 0x04, 0x00, 0x00, 0x00,
  0x44, 0xfd, 0xff, 0xff, 0x32, 0x00, 0x00, 0x00, 0x73, 0x65, 0x71, 0x75,
  0x65, 0x6e, 0x74, 0x69, 0x61, 0x6c, 0x2f, 0x64, 0x65, 0x6e, 0x73, 0x65,
  0x5f, 0x32, 0x2f, 0x4d, 0x61, 0x74, 0x4d, 0x75, 0x6c, 0x2f, 0x52, 0x65,
  0x61, 0x64, 0x56, 0x61, 0x72, 0x69, 0x61, 0x62, 0x6c, 0x65, 0x4f, 0x70,
  0x2f, 0x74, 0x72, 0x61, 0x6e, 0x73, 0x70, 0x6f, 0x73, 0x65, 0x00, 0x00,
  0x02, 0x00, 0x00, 0x00, 0x01, 0x00, 0x00, 0x00, 0x32, 0x00, 0x00, 0x00,
  0xae, 0xfd, 0xff, 0xff, 0x30, 0x00, 0x00, 0x00, 0x0a, 0x00, 0x00, 0x00,
  0x0c, 0x00, 0x00, 0x00, 0x04, 0x00, 0x00, 0x00, 0xa0, 0xfd, 0xff, 0xff,
  0x17, 0x00, 0x00, 0x00, 0x73, 0x65, 0x71, 0x75, 0x65, 0x6e, 0x74, 0x69,
  0x61, 0x6c, 0x2f, 0x64, 0x65, 0x6e, 0x73, 0x65, 0x5f, 0x31, 0x2f, 0x52,
  0x65, 0x6c, 0x75, 0x00, 0x02, 0x00, 0x00, 0x00, 0x01, 0x00, 0x00, 0x00,
  0x32, 0x00, 0x00, 0x00, 0xee, 0xfd, 0xff, 0xff, 0x38, 0x00, 0x00, 0x00,
  0x03, 0x00, 0x00, 0x00, 0x0c, 0x00, 0x00, 0x00, 0x04, 0x00, 0x00, 0x00,
  0xe0, 0xfd, 0xff, 0xff, 0x1e, 0x00, 0x00, 0x00, 0x73, 0x65, 0x71, 0x75,
  0x65, 0x6e, 0x74, 0x69, 0x61, 0x6c, 0x2f, 0x64, 0x65, 0x6e, 0x73, 0x65,
  0x5f, 0x31, 0x2f, 0x4d, 0x61, 0x74, 0x4d, 0x75, 0x6c, 0x5f, 0x62, 0x69,
  0x61, 0x73, 0x00, 0x00, 0x01, 0x00, 0x00, 0x00, 0x32, 0x00, 0x00, 0x00,
  0x00, 0x00, 0x0e, 0x00, 0x18, 0x00, 0x08, 0x00, 0x07, 0x00, 0x0c, 0x00,
  0x10, 0x00, 0x14, 0x00, 0x0e, 0x00, 0x00, 0x00, 0x00, 0x00, 0x00, 0x09,
  0x74, 0x00, 0x00, 0x00, 0x04, 0x00, 0x00, 0x00, 0x34, 0x00, 0x00, 0x00,
  0x10, 0x00, 0x00, 0x00, 0x0c, 0x00, 0x0c, 0x00, 0x00, 0x00, 0x00, 0x00,
  0x04, 0x00, 0x08, 0x00, 0x0c, 0x00, 0x00, 0x00, 0x14, 0x00, 0x00, 0x00,
  0x04, 0x00, 0x00, 0x00, 0x01, 0x00, 0x00, 0x00, 0x00, 0x00, 0x00, 0x00,
  0x00, 0x00, 0x00, 0x00, 0x01, 0x00, 0x00, 0x00, 0x64, 0x8d, 0x02, 0x3c,
  0x32, 0x00, 0x00, 0x00, 0x73, 0x65, 0x71, 0x75, 0x65, 0x6e, 0x74, 0x69,
  0x61, 0x6c, 0x2f, 0x64, 0x65, 0x6e, 0x73, 0x65, 0x5f, 0x31, 0x2f, 0x4d,
  0x61, 0x74, 0x4d, 0x75, 0x6c, 0x2f, 0x52, 0x65, 0x61, 0x64, 0x56, 0x61,
  0x72, 0x69, 0x61, 0x62, 0x6c, 0x65, 0x4f, 0x70, 0x2f, 0x74, 0x72, 0x61,
  0x6e, 0x73, 0x70, 0x6f, 0x73, 0x65, 0x00, 0x00, 0x02, 0x00, 0x00, 0x00,
  0x32, 0x00, 0x00, 0x00, 0x32, 0x00, 0x00, 0x00, 0xca, 0xfe, 0xff, 0xff,
  0x30, 0x00, 0x00, 0x00, 0x07, 0x00, 0x00, 0x00, 0x0c, 0x00, 0x00, 0x00,
  0x04, 0x00, 0x00, 0x00, 0xbc, 0xfe, 0xff, 0xff, 0x15, 0x00, 0x00, 0x00,
  0x73, 0x65, 0x71, 0x75, 0x65, 0x6e, 0x74, 0x69, 0x61, 0x6c, 0x2f, 0x64,
  0x65, 0x6e, 0x73, 0x65, 0x2f, 0x52, 0x65, 0x6c, 0x75, 0x00, 0x00, 0x00,
  0x02, 0x00, 0x00, 0x00, 0x01, 0x00, 0x00, 0x00, 0x32, 0x00, 0x00, 0x00,
  0x0a, 0xff, 0xff, 0xff, 0x38, 0x00, 0x00, 0x00, 0x05, 0x00, 0x00, 0x00,
  0x0c, 0x00, 0x00, 0x00, 0x04, 0x00, 0x00, 0x00, 0xfc, 0xfe, 0xff, 0xff,
  0x1c, 0x00, 0x00, 0x00, 0x73, 0x65, 0x71, 0x75, 0x65, 0x6e, 0x74, 0x69,
  0x61, 0x6c, 0x2f, 0x64, 0x65, 0x6e, 0x73, 0x65, 0x2f, 0x4d, 0x61, 0x74,
  0x4d, 0x75, 0x6c, 0x5f, 0x62, 0x69, 0x61, 0x73, 0x00, 0x00, 0x00, 0x00,
  0x01, 0x00, 0x00, 0x00, 0x32, 0x00, 0x00, 0x00, 0x4e, 0xff, 0xff, 0xff,
  0x4c, 0x00, 0x00, 0x00, 0x08, 0x00, 0x00, 0x00, 0x0c, 0x00, 0x00, 0x00,
  0x04, 0x00, 0x00, 0x00, 0x40, 0xff, 0xff, 0xff, 0x30, 0x00, 0x00, 0x00,
  0x73, 0x65, 0x71, 0x75, 0x65, 0x6e, 0x74, 0x69, 0x61, 0x6c, 0x2f, 0x64,
  0x65, 0x6e, 0x73, 0x65, 0x2f, 0x4d, 0x61, 0x74, 0x4d, 0x75, 0x6c, 0x2f,
  0x52, 0x65, 0x61, 0x64, 0x56, 0x61, 0x72, 0x69, 0x61, 0x62, 0x6c, 0x65,
  0x4f, 0x70, 0x2f, 0x74, 0x72, 0x61, 0x6e, 0x73, 0x70, 0x6f, 0x73, 0x65,
  0x00, 0x00, 0x00, 0x00, 0x02, 0x00, 0x00, 0x00, 0x32, 0x00, 0x00, 0x00,
  0x06, 0x00, 0x00, 0x00, 0xaa, 0xff, 0xff, 0xff, 0x44, 0x00, 0x00, 0x00,
  0x06, 0x00, 0x00, 0x00, 0x2c, 0x00, 0x00, 0x00, 0x0c, 0x00, 0x00, 0x00,
  0x08, 0x00, 0x0c, 0x00, 0x04, 0x00, 0x08, 0x00, 0x08, 0x00, 0x00, 0x00,
  0x10, 0x00, 0x00, 0x00, 0x04, 0x00, 0x00, 0x00, 0x01, 0x00, 0x00, 0x00,
  0x00, 0x00, 0x7f, 0x43, 0x01, 0x00, 0x00, 0x00, 0x00, 0x00, 0x00, 0x00,
  0x0b, 0x00, 0x00, 0x00, 0x64, 0x65, 0x6e, 0x73, 0x65, 0x5f, 0x69, 0x6e,
  0x70, 0x75, 0x74, 0x00, 0x02, 0x00, 0x00, 0x00, 0x01, 0x00, 0x00, 0x00,
  0x06, 0x00, 0x00, 0x00, 0x00, 0x00, 0x0e, 0x00, 0x14, 0x00, 0x04, 0x00,
  0x00, 0x00, 0x08, 0x00, 0x0c, 0x00, 0x10, 0x00, 0x0e, 0x00, 0x00, 0x00,
  0x28, 0x00, 0x00, 0x00, 0x09, 0x00, 0x00, 0x00, 0x10, 0x00, 0x00, 0x00,
  0x08, 0x00, 0x00, 0x00, 0x04, 0x00, 0x04, 0x00, 0x04, 0x00, 0x00, 0x00,
  0x08, 0x00, 0x00, 0x00, 0x49, 0x64, 0x65, 0x6e, 0x74, 0x69, 0x74, 0x79,
  0x00, 0x00, 0x00, 0x00, 0x02, 0x00, 0x00, 0x00, 0x01, 0x00, 0x00, 0x00,
  0x01, 0x00, 0x00, 0x00, 0x01, 0x00, 0x00, 0x00, 0x10, 0x00, 0x00, 0x00,
  0x00, 0x00, 0x0a, 0x00, 0x0c, 0x00, 0x07, 0x00, 0x00, 0x00, 0x08, 0x00,
  0x0a, 0x00, 0x00, 0x00, 0x00, 0x00, 0x00, 0x09, 0x03, 0x00, 0x00, 0x00
};
unsigned int nn_model_tflite_len = 5760;
